00110000001110111000001010000010000000000000010100010100001000000110010000010110000011001010000000011000010000001001100000101000
01100000100000000000010101000000010000001001001000001100010011000000000101000010110100000001010010100000100000000000000111100000
01001000110101000000110010110111100010100000110010010100010001000100000000101000010100000010100000001010100000000000010110000100
00100100011101000000000000100010110011011011100000000100001011010000101010101000100000010000100010001000000000001010001110001010
10001000000000110000011010001010010100100010100011000000110011000110000000000000100010000000000010000010010010001000100100000101
01000000000000000111000000000100101011000000100010010101000000000000000010100001000100000000000001000000000000101000010000100010
00110001001001000111100101010001001010011011100010101000100001000000110000100100000101000001101000000001000111100001100001100100
10101011001010100011110010001110011000101000000000010001010000010001001101001010000010100000001101100011000101000001000000000100
01000000100001110001000010001010100100000100101101010010100001000000000000110000000111010001000010111101011001000001100001000010
00000110110001100001000010000000000100000000000011000000111000100101010110001000110100000010100001001001100000000100011011101010
00100100000000010110000001100110001001000110100000001000101100100100000100100000011000000000000000100000000001111000001000100010
00000100000010110000001000001000000100001001110100000100000110010000010100001000100000000000111100001000000001110000000010010000
01000000110100000000001010000100000001000010000010110000000010000001010010001000010010001010111010010000111001100011000100011000
10001010001110000010001000100110010111001000000110100000001001010110001000001011000001000000010100100011100111100100100100000000
00000000010110100000000001000110111100010000001000110111011000010100000000000000110000000001100100011000000010000100011011011111
10001000011000000000001001000001111101000000000100000010000000010010001001100000010111100001000100001000000000100000100000000000
01000000101000101100000010100000010000000011110110000001001000110000010000001000101010011001000011000010010000000000100101000110
10001100110000000110000000110000010101000010000000000001111000000000000100010011000000101001000000010000100010000100100110000100
00110010010000010000000010100100111010000011000001100100001010100001011100011010011001001001000010011001010000100100000000010001
11000100000010001011101000001100000100101110000010100010010000010000000000100110100100000100101101101010100000101001000011000101
10000000101010011010000000000111001000100011001000010000111010000000111001000001000010100000111010010010000100000100000010000001
01000010010110010101100000000000000000000111111100000000001010000000001000000000000010100000111011010001100000110000111010000010
01100000000000111100100000000110100101000001000000000010010010000000110000010001000100010000000000001000011001001001100010010100
01000000000001110001000000000100010010100010100110000010001011010100100001001100110000001001010010010000011010001010000000110101
11011101100000001000100100001011000110100001000110000010000100010010000001100100000001011000000000000010000110000011000011000000
10110000100100010110000011010001000000111001110100111001000100100101110000100000010011000100000000000000001000100001000101100011
01001100110000100010001000000110000000100010000000000010001010100000001010100000011000110110010011010100001010100001000000100110
11000000101100010100010011000000000001001110010000001000100110010000000010001110000011100000000100010001001000011011000001100001
00000100000001000000010110001000000000000110100000001101001000001010010000100110001000011010110100100000000100000010000001011000
10010110010101000001010000000001000011110100010000000010010001100001000110000011000101100010001100001001000010011000001010000111
11000000011000110101000000110000110000010010001010001101010100000111100100000001110100001001000010000011010100001000000000000000
01100001001001000010000100010000100100001001000000100011101100000100000000100110010001001001000000001010101000011000001101001000
11001000000110000001000010110010000001000001010000100100011010000001000101000001100100000001110111000000100011011100000001000110
00000000000110001000000010010010001000011000001011111001101010001010001100000001110011011100000001010000100100001000000010000000
01001100001101001001101000011110100000001100000100010100100000001000110000010000000010000100010110101000100000010100010000000000
00000010100110000111000101001100110000110101000010110010010000000110011001011000010000001001001001110100000001000101000000001100
00110010001100010000010011010000000000011100000111000000001110100101000010110000010000001000100111000010000000000010000010000000
01110001010001000110011000001010100101100000100001001011101000000000001000111010011000010000000011110001110011110010000100001001
10000010011100011011100101000001001000000110010000100001010000000000011010010000000010000011000001000000001000000111110110000000
01000000011010001100011110110101001001001000100100001000101010000001001100100001000110100000110101000110001110010000000000000010
01001111000001000001001100001000000000111000001000000110100000000100000000100000100000100101000000010011011100000010000000001001
00010000000000000101000000000011010000001100110000010000001000100100000000011001000010000001001100000000110001000000100000101000
00101001011101000110100110001000000010000000010101111101000111001000011001001100110000000101000001011000100101111000100111000101
00011010001000011001100000010101000011110000000101010001000001011011011000000000001100001101100100000010100100000001000010000101
00000000010100100110010000001000100000000000001101001001000000000100000000101010000100111011110000101111110110001001010001001100
00000000010000010000001000001000000011000001000111100010010000000011000100010000100000000011001100000000011111000100000000100010
10110010001001000010100001000000000000000000000101010000000110000100010001000010000000001011000011011001000011110001111000100000
01010100110000100010000100001000011101001110010000011000011010001010100111001001001000000100100100000100110001000011000101000010
10111101000100011101000100000000000000000001000000001000011000000001000110010000000000000011110110100011000010100100000001010000
10000011100000100011010000010000001100001011010000111001001000000000111100001000000100000000000010010001000000101011000000100010
00000000000100000100101110101000100101000001001001010000010110000001000100010011000001000010100001000001010000000000001011001100
11001000001010011000001000101000000011001110000010000000011100000010100000010000000010010000010000101000100001010000010010100000
10011100011000101010010001010110000010001001001010001110101011000000001001100100101110000111000100010010000001100001010000000001
10000100100010100000001000101000000000010100111000000010000111000001000011010010011100000000001100000000000000010001000000000001
01001001000000000100000010011000000001010110001000000101101000100010010001000000001000100000010010110001010100000110000010010101
01000010010010000100000000000110100000000000101111000001000010000000001000110000100001001100100100010101010001010000000000001001
00000100000010100000000100000100001110010101000000000110000110100010110111001000110000010010000100001100100100000000000100000000
11010100010000010001100110101001110000011100000000000100001010100100011100000010001110000010110101000010000000000011011110010101
10001010100000010000100001110001011000100000100000000001010001000000100000001100010000000000011000010111010001001010000010000000
01100000000001010101000110100010000011101000000011100000000011000010010001000000100000000101000010000001100000000001100000011100
00000010001000010000100000100010001000000000010100001010000000000000000010100001100000110100000001000000101100010011011100101011
01000100000000010010000000000000100000010100000001100010011000000100100110000000000000010111010111001000000100000010010000010000
10010010001111010011001010000010000000000101001010010000011000010000010000000000000000000000001011011101000001000000000000001100
00000010000010000000000000010000000100010000010000000001010001010010101000000100010010011001000100010000100000010111000000011100
00010011010000000000110011010000010110000010001010100001001101000101100010100010000011000000000000100001011100000100000000000010
10110011000010100000001000101000010000000001000001010000000010010011010100010100000100000011000110100000000000110000010100000000
11100110100000000010010000001001000000100001110100000011011010000010100001100001000000011000000000001000000000010100001000110100
00010000011001000010000010000010010100110100100100110000000000011000001000000001001100100010010100100011000110000000101110010110
10011000010011000001101010000001000001101000100000010000111101000100000000101111101010001010001001010001001000001010000000000011
00000000100001010011000000101000110000001010100010010010001110001000001000010000101100100110000001000000000001010000000010001001
10101110001100100010001001010010100000010000000010001000100001010001000100000101000000100000000000000010110000001111000000000000
00000100100001001100000100101001110100000100111100011000010000010000000110010011000000100001010000000100000001010010010110100000
00101000000010010100011100100000000001001000010000100100010001000000100010000000000111110110000001000010000001001010000001110000
01010000000011101011010010101000110100000001110010110000000100101011000100101011000100000100010100100010000100001000000000001000
01100010010100001000000000000001101111010010110000000100000100001000100000101010100001010001100000000100010101101000000000000110
10110101000100001011010011000000000000010000010000010011000011010000100110001000101001100101100001100000011111000011001000000110
01100100100011000000100010010001000000001000010011011000100000000000110001000000000001101000000101010000111101000010000110000100
00000001000001001001100000101101000011000001000100001010110000101000100000011011001000101001100110100011001000000101010100010010
01101110001000101110100010011010110100100111100000011101100100010000000000000101000000000111000001000101000000101000100000001000
10000101010000000000000000010101001011100100010100010100011000001010000001101100000001000000000100010100100110001101101101001110
00001110000000111000000101001010100000011001000010000000101001000101000000010000000000000010000001100000100000100000000100010111
00000010100010000000000000010001100101011000100101000110001000100000001010001000000010000111100101000110000100001000001000011010
00010000010010000111000000000001000000100000000101000010010001000000000110000010001011001001010101000001111000100000010000000000
11000010000010000100100000010010010001100100000000000011101000100001001000101010000001001000000000001010000110010001110001010000
00010000100010101000000110011001001010001011110010010010001000101011100101110011000000000000100110000011000000001010110001110000
01010000111000000000000100001000010000110010000000100010000000001001000000000011000111010110100000000101100100100110110010010001
00000000010000010000010010100000110100110010000110000001000000001100001000100011001010010001000001000010000110110000010110000100
00001000000100000011000000000100000000000000011010100000010010000111001010000000001000110101100001001100100100000001010001001100
00100010010011111010100101000110001000000001100100000000101001101010001000110011000100000011000001100001100100011010000000000110
00001000000000000100000101000000000111001000001101000011011010010010011000000010110000101000000001100000001101010000001101100000
00100010101010000000011000100001101001000000000000011000000011001000001010010100001001010100100000010011001100000001011000000000
01101000010000000100000000000100011101000000010000010000011011001010100000000001011000000110001110100000000000000000000000000000
01000000000100001011000111100001100100001101001000000001100110011100011100000000000000100101000000100000001000011011010000001110
01100101001101110000001000000110000000110000110001110000000110011001000001011100000000011101000110010000010011011010100000000110
00000000100010100000101000101000110001101110001100011001100000000000010100100000001011001101011001100000000000000011010001000001
00010110001110000001100010000101100011000100001000001011011100100100100000110000010000000000001010001001010011000001110000101100
10000100010001000000100001100111101101000000010000000000001000110000000000010000000011010000011010100000000100000010000110010010
00001100010001000101100001000000000010001000010010101010110100100010110010010001000101001110010000000001000010011000000000100000
00010001001100101100011000000000000111000000000001011000000100110100000000000001001001100010010000010100101000101100001011000110
00010010000000010100001000100001000100010110001000000000000100000000110100000010010010000100101000000010000000000000101011000001
01001110101000011011010000000100000110011001001000100010011001000001110110001110010010001000000001001001000011011011100101000100
00011000110100000010001000110101101000001000000000011000000000010011001110000001100010101000000010000001011001001010100001000100
10000000100001011001010000011000001100010100100001000000011100001001110101001000100001100000000000000010010001100101110001010000
00000010010100111010001000101000010000000000000000110000100000000001011011010100000000000000001000010100000000000100010011000000
00110011010000100100000000100001000010001000010010000100000000101000110001000000100000010000010110001011010111000000010010000001
00000010000000001000010000110010001010000100100000000000101000110010000000100010000000100100111001000000000000010011100001001000
00000110100000010000100011011001010000001110100010000100010000000001000000101010010101000000010000000000001010000000101010000000
00001000000010101100010101010101000010000000001110100011010000000000110000000111010000010001000000001001001100100000000010000000
10011000000000001101101011101100100010010111000010111100000000110100000100111010100000000001010001001000010101101010010101101010
10001001000000000011100001100000110001010110000110001111011011000011000000000011000110100000000000000000001001011010000010001000
00101001100000001000000000111011110001001000000101100101000100001110000010100101011111100110000001010100011010000000010010101010
10101100001001000100000110000001010010100001010010100000000111000011010010000000000011010100001100010000000100010010010110010100
10000001001011000010000000000110100001001000101000000000100000110000100000001000000010001000001000101011000001000000010000000100
00000010101001001001001100010110100000000001000000000000110000110000000000000000010100110000100010100000010001000001011111001110
00000010111100000001011000000101010000000000000101100011010100000011100110010100001110100100000000101001001000101110100001101010
00000011001001001000010011011100000100000000000101000100100100011010010101100111000011001001010100000000101110000000101010110000
00000001100001000000001000010100011001001001000001000111100110000000001011110010100001001001010001010000000001001110000000111000
01010001001010010000100110010000010000100100100000010000011100010000100100101000000000001010110010100000000001100001110000011000
00100000011000000000000000000000100100110000001000000010100000010001010000010000000000001010001001100001010000101110000001000111
00110000101101100000100110110101100000101010000101010110000101000101111000000100001000000000010000010001111010000000000000001010
10011000000101100001100100100001010011100001000001011010011010011000001011000000001010001010000101010100000101000000100000010001
00100000011000010100101000000101100101100100001100000010101010000011011010011000110000000101000001010110101110110000001001000100
00001001000000000000000000010000101010001000000001001010000100000000001100001000100000000010010000010001001000001000000000010000
00100101000000110101001001000001000100101000110100001001010010101000010001011001000000000010011000001001000100010010010000010000
00100000000010101110101100010000110100100110001101101010000011000010000101000001100000100000010100110001001101010000000000101000
01000100001000101000000001000000000000000001000000000001100100000001010001000100000000000000000000000000001000010100000000110100
00010001011000000000100000010000001010000100000000100000000110101000001000000111000110110010010010010000001000100100010110001000
01100100011000100000110101001010011001011000010001000100010000010010000000100101100000000001000101010001000000000000000001000001